{
  "version": "1.0",
  "truncation": null,
  "padding": null,
  "added_tokens": [
    {
      "id": 0,
      "content": "[PAD]",
      "single_word": false,
      "lstrip": false,
      "rstrip": false,
      "normalized": false,
      "special": true
    },
    {
      "id": 1,
      "content": "[UNK]",
      "single_word": false,
      "lstrip": false,
      "rstrip": false,
      "normalized": false,
      "special": true
    },
    {
      "id": 2,
      "content": "[BOS]",
      "single_word": false,
      "lstrip": false,
      "rstrip": false,
      "normalized": false,
      "special": true
    },
    {
      "id": 3,
      "content": "[EOS]",
      "single_word": false,
      "lstrip": false,
      "rstrip": false,
      "normalized": false,
      "special": true
    },
    {
      "id": 4,
      "content": "[FILE]",
      "single_word": false,
      "lstrip": false,
      "rstrip": false,
      "normalized": false,
      "special": true
    },
    {
      "id": 5,
      "content": "[FUNC]",
      "single_word": false,
      "lstrip": false,
      "rstrip": false,
      "normalized": false,
      "special": true
    },
    {
      "id": 6,
      "content": "[CLASS]",
      "single_word": false,
      "lstrip": false,
      "rstrip": false,
      "normalized": false,
      "special": true
    },
    {
      "id": 7,
      "content": "[METHOD]",
      "single_word": false,
      "lstrip": false,
      "rstrip": false,
      "normalized": false,
      "special": true
    },
    {
      "id": 8,
      "content": "[IMPORTS]",
      "single_word": false,
      "lstrip": false,
      "rstrip": false,
      "normalized": false,
      "special": true
    },
    {
      "id": 9,
      "content": "[UPSTREAM]",
      "single_word": false,
      "lstrip": false,
      "rstrip": false,
      "normalized": false,
      "special": true
    },
    {
      "id": 10,
      "content": "[DOWNSTREAM]",
      "single_word": false,
      "lstrip": false,
      "rstrip": false,
      "normalized": false,
      "special": true
    },
    {
      "id": 11,
      "content": "[INDENT]",
      "single_word": false,
      "lstrip": false,
      "rstrip": false,
      "normalized": false,
      "special": true
    },
    {
      "id": 12,
      "content": "[DEDENT]",
      "single_word": false,
      "lstrip": false,
      "rstrip": false,
      "normalized": false,
      "special": true
    },
    {
      "id": 13,
      "content": "[NEWLINE]",
      "single_word": false,
      "lstrip": false,
      "rstrip": false,
      "normalized": false,
      "special": true
    }
  ],
  "normalizer": null,
  "pre_tokenizer": {
    "type": "Sequence",
    "pretokenizers": [
      {
        "type": "ByteLevel",
        "add_prefix_space": false,
        "trim_offsets": true,
        "use_regex": true
      }
    ]
  },
  "post_processor": null,
  "decoder": {
    "type": "ByteLevel",
    "add_prefix_space": true,
    "trim_offsets": true,
    "use_regex": true
  },
  "model": {
    "type": "BPE",
    "dropout": null,
    "unk_token": "[UNK]",
    "continuing_subword_prefix": null,
    "end_of_word_suffix": null,
    "fuse_unk": false,
    "byte_fallback": false,
    "ignore_merges": false,
    "vocab": {
      "[PAD]": 0,
      "[UNK]": 1,
      "[BOS]": 2,
      "[EOS]": 3,
      "[FILE]": 4,
      "[FUNC]": 5,
      "[CLASS]": 6,
      "[METHOD]": 7,
      "[IMPORTS]": 8,
      "[UPSTREAM]": 9,
      "[DOWNSTREAM]": 10,
      "[INDENT]": 11,
      "[DEDENT]": 12,
      "[NEWLINE]": 13,
      "!": 14,
      "\"": 15,
      "#": 16,
      "&": 17,
      "'": 18,
      "(": 19,
      ")": 20,
      "*": 21,
      "+": 22,
      ",": 23,
      "-": 24,
      ".": 25,
      "/": 26,
      "0": 27,
      "1": 28,
      "2": 29,
      "3": 30,
      "5": 31,
      "6": 32,
      "7": 33,
      "8": 34,
      ":": 35,
      "<": 36,
      "=": 37,
      ">": 38,
      "?": 39,
      "@": 40,
      "A": 41,
      "B": 42,
      "C": 43,
      "D": 44,
      "E": 45,
      "F": 46,
      "G": 47,
      "H": 48,
      "I": 49,
      "J": 50,
      "K": 51,
      "L": 52,
      "M": 53,
      "N": 54,
      "O": 55,
      "P": 56,
      "Q": 57,
      "R": 58,
      "S": 59,
      "T": 60,
      "U": 61,
      "V": 62,
      "W": 63,
      "X": 64,
      "Y": 65,
      "[": 66,
      "\\": 67,
      "]": 68,
      "_": 69,
      "a": 70,
      "b": 71,
      "c": 72,
      "d": 73,
      "e": 74,
      "f": 75,
      "g": 76,
      "h": 77,
      "i": 78,
      "j": 79,
      "k": 80,
      "l": 81,
      "m": 82,
      "n": 83,
      "o": 84,
      "p": 85,
      "q": 86,
      "r": 87,
      "s": 88,
      "t": 89,
      "u": 90,
      "v": 91,
      "w": 92,
      "x": 93,
      "y": 94,
      "z": 95,
      "{": 96,
      "}": 97,
      "~": 98,
      "¥": 99,
      "§": 100,
      "©": 101,
      "·": 102,
      "Î": 103,
      "â": 104,
      "ð": 105,
      "Ċ": 106,
      "č": 107,
      "Ġ": 108,
      "ģ": 109,
      "Ĩ": 110,
      "Į": 111,
      "į": 112,
      "Ĵ": 113,
      "ĵ": 114,
      "Ķ": 115,
      "Ł": 116,
      "ł": 117,
      "ĠĠ": 118,
      "ĠĠĠĠ": 119,
      "čĊ": 120,
      "ĠĠĠ": 121,
      "ĠĠĠĠĠĠĠĠ": 122,
      "de": 123,
      "re": 124,
      "ĠĠĠĠĠĠĠ": 125,
      "at": 126,
      "ode": 127,
      "on": 128,
      "in": 129,
      "--": 130,
      "node": 131,
      "se": 132,
      "or": 133,
      "st": 134,
      "et": 135,
      "ĠĠĠĠĠĠĠĠĠĠĠ": 136,
      "Ġf": 137,
      "ra": 138,
      "Ġ=": 139,
      "ct": 140,
      "Ġre": 141,
      "er": 142,
      "ph": 143,
      "ed": 144,
      "raph": 145,
      "Ġc": 146,
      "ar": 147,
      "Ġ\"": 148,
      "le": 149,
      "lf": 150,
      "self": 151,
      "get": 152,
      "graph": 153,
      "ion": 154,
      "Ġt": 155,
      "ur": 156,
      "Ġi": 157,
      "----": 158,
      "dat": 159,
      "Ġin": 160,
      "mp": 161,
      "es": 162,
      "Ġself": 163,
      "(\"": 164,
      "ex": 165,
      "nt": 166,
      "Ġp": 167,
      "po": 168,
      "ce": 169,
      "it": 170,
      "ro": 171,
      "Ġnode": 172,
      "ĠĠĠĠĠĠĠĠĠĠĠĠĠĠĠ": 173,
      "\")": 174,
      "Ġa": 175,
      "am": 176,
      "data": 177,
      "\",": 178,
      "ort": 179,
      "su": 180,
      "pe": 181,
      "):": 182,
      "al": 183,
      "ol": 184,
      "mport": 185,
      "\":": 186,
      "Ġfor": 187,
      "ext": 188,
      "Ġn": 189,
      "str": 190,
      "un": 191,
      "cl": 192,
      "od": 193,
      "em": 194,
      "Ġm": 195,
      "ile": 196,
      "nodes": 197,
      "ation": 198,
      "Ġret": 199,
      "ing": 200,
      "Ġ{": 201,
      "ath": 202,
      "ont": 203,
      "edg": 204,
      "ig": 205,
      "def": 206,
      "urn": 207,
      "path": 208,
      "ty": 209,
      "Ġreturn": 210,
      "()": 211,
      "ction": 212,
      "rom": 213,
      "Ġcl": 214,
      "ame": 215,
      "igh": 216,
      "eigh": 217,
      "Ġif": 218,
      "lo": 219,
      "mm": 220,
      "--------": 221,
      "Ġ#": 222,
      "ad": 223,
      "der": 224,
      "mmar": 225,
      "\"\"": 226,
      "lt": 227,
      "repo": 228,
      "ore": 229,
      "Ġs": 230,
      "ĠĠĠĠĠĠĠĠĠĠĠĠĠĠĠĠĠĠĠ": 231,
      "Ġimport": 232,
      "Ġpr": 233,
      "ontext": 234,
      "as": 235,
      "ory": 236,
      "type": 237,
      "id": 238,
      "int": 239,
      "ure": 240,
      "summar": 241,
      "Ġprint": 242,
      "an": 243,
      "ust": 244,
      "uster": 245,
      "name": 246,
      "up": 247,
      "file": 248,
      "pt": 249,
      "arget": 250,
      "en": 251,
      "arse": 252,
      "il": 253,
      "Ġb": 254,
      "older": 255,
      "code": 256,
      "Ġo": 257,
      "from": 258,
      "iv": 259,
      "uct": 260,
      "Ġgraph": 261,
      "Ġstr": 262,
      "sult": 263,
      "ist": 264,
      "Ġw": 265,
      "Ġto": 266,
      "ucture": 267,
      "Ġrepo": 268,
      "eight": 269,
      "qu": 270,
      "Ġdef": 271,
      "ĠĠĠĠčĊ": 272,
      "ie": 273,
      "\"]": 274,
      "ctiv": 275,
      "cept": 276,
      "ctivation": 277,
      "our": 278,
      "Ġ[": 279,
      "edges": 280,
      "hod": 281,
      "Ġd": 282,
      "ethod": 283,
      "ll": 284,
      "nd": 285,
      "sit": 286,
      "[\"": 287,
      "uil": 288,
      "Ġ0": 289,
      "ĠĠĠĠĠĠĠĠčĊ": 290,
      "unction": 291,
      "ource": 292,
      "Ġresult": 293,
      "ery": 294,
      "ass": 295,
      "ĠR": 296,
      "edge": 297,
      "ap": 298,
      "ax": 299,
      "import": 300,
      "Ġex": 301,
      "query": 302,
      "=\"": 303,
      "co": 304,
      "ict": 305,
      "store": 306,
      "unc": 307,
      "add": 308,
      "bed": 309,
      "el": 310,
      "folder": 311,
      "lation": 312,
      "ot": 313,
      "ow": 314,
      "ĠC": 315,
      "all": 316,
      "ew": 317,
      "ule": 318,
      "ver": 319,
      "Ġ+": 320,
      "ream": 321,
      "stream": 322,
      "emory": 323,
      "Graph": 324,
      "ic": 325,
      "weight": 326,
      "ate": 327,
      "arsed": 328,
      "Ġ1": 329,
      "ĠĠĠĠĠĠĠĠĠĠĠĠĠĠĠĠĠĠĠĠĠĠĠ": 330,
      "rent": 331,
      "structure": 332,
      "odule": 333,
      "summary": 334,
      "].": 335,
      "context": 336,
      "oncept": 337,
      "olle": 338,
      "..": 339,
      "ant": 340,
      "ĠS": 341,
      "Ġcontext": 342,
      "Ġas": 343,
      "Ġcluster": 344,
      "activation": 345,
      "ding": 346,
      "js": 347,
      "pes": 348,
      "ue": 349,
      "vi": 350,
      "Ġse": 351,
      "urrent": 352,
      "json": 353,
      "rie": 354,
      "ut": 355,
      "Ġel": 356,
      "Ġtarget": 357,
      "ies": 358,
      "pl": 359,
      "unt": 360,
      "Ġfile": 361,
      "updat": 362,
      "Ġ(": 363,
      "Ġ\"\"\"": 364,
      "Ġty": 365,
      "pend": 366,
      "embed": 367,
      "Ġ+=": 368,
      "ent": 369,
      "Ġdata": 370,
      "Ġrelation": 371,
      "append": 372,
      "ollection": 373,
      "source": 374,
      "to": 375,
      "one": 376,
      "Ġnew": 377,
      "cluster": 378,
      "Ġbuil": 379,
      "),": 380,
      "],": 381,
      "im": 382,
      "ke": 383,
      "method": 384,
      "Ġth": 385,
      "mpt": 386,
      "rompt": 387,
      "----------------": 388,
      "Ġresults": 389,
      "ĠRe": 390,
      "count": 391,
      "target": 392,
      "ve": 393,
      "ĠA": 394,
      "ith": 395,
      "class": 396,
      ").": 397,
      "ip": 398,
      ".\")": 399,
      "bor": 400,
      "for": 401,
      "function": 402,
      "lin": 403,
      "nstream": 404,
      "Ġ-": 405,
      "ated": 406,
      "eighbor": 407,
      "Ġos": 408,
      "Ġ[]": 409,
      "ownstream": 410,
      "embedding": 411,
      "Tr": 412,
      "['": 413,
      "__": 414,
      "core": 415,
      "module": 416,
      "Ġg": 417,
      "Ġ}": 418,
      "Ġget": 419,
      "ded": 420,
      "item": 421,
      "summaries": 422,
      "ance": 423,
      "visit": 424,
      "Ġbuild": 425,
      "ipp": 426,
      "=[": 427,
      "ase": 428,
      "adata": 429,
      "ch": 430,
      "call": 431,
      "nipp": 432,
      "Ġ)": 433,
      "ĠM": 434,
      "Ġquery": 435,
      "ets": 436,
      "etadata": 437,
      "Ġ{}": 438,
      "\"\"\"": 439,
      "nippets": 440,
      "():": 441,
      "][": 442,
      "dict": 443,
      "ge": 444,
      "th": 445,
      "um": 446,
      "ull": 447,
      "ĠE": 448,
      "onf": 449,
      "Ġfunc": 450,
      "Ġcode": 451,
      "())": 452,
      "Ġ->": 453,
      "True": 454,
      "bal": 455,
      "ck": 456,
      "func": 457,
      "if": 458,
      "iz": 459,
      "oc": 460,
      "text": 461,
      "Ġflo": 462,
      "Ġconcept": 463,
      "Ġis": 464,
      "Ġnodes": 465,
      "Ġnot": 466,
      "Ġmethod": 467,
      "lobal": 468,
      "Ġwith": 469,
      "sitory": 470,
      "key": 471,
      "Ġthe": 472,
      "items": 473,
      "visited": 474,
      "ast": 475,
      "}:": 476,
      "Ġx": 477,
      "Ġ----------------": 478,
      "---": 479,
      "stat": 480,
      "Ġfolder": 481,
      "ran": 482,
      "Ġcurrent": 483,
      "Ġparsed": 484,
      "Ġmax": 485,
      "Ġtop": 486,
      "ĠCode": 487,
      "Ġtypes": 488,
      "form": 489,
      "Ġfloat": 490,
      "))": 491,
      "ain": 492,
      "ial": 493,
      "max": 494,
      "rate": 495,
      "sh": 496,
      "Ġ*": 497,
      "ĠI": 498,
      "Ġedges": 499,
      "Ġvisited": 500,
      "ĠĠĠĠĠĠĠĠĠĠĠĠčĊ": 501,
      "resh": 502,
      "Ġint": 503,
      "llm": 504,
      "emoryGraph": 505,
      "ĠRepo": 506,
      "gs": 507,
      "is": 508,
      "parsed": 509,
      "lev": 510,
      "Ġtext": 511,
      "Ġactivation": 512,
      "Ġand": 513,
      "old": 514,
      "Ġclass": 515,
      "Ġsnippets": 516,
      "arser": 517,
      "Ġweight": 518,
      "...\")": 519,
      "riever": 520,
      "Ġelse": 521,
      "ime": 522,
      "thresh": 523,
      "threshold": 524,
      "ay": 525,
      "concept": 526,
      "downstream": 527,
      "jo": 528,
      "ĠL": 529,
      "Ġde": 530,
      "Ġjson": 531,
      "den": 532,
      "Ġfrom": 533,
      "Ġfunction": 534,
      "Ġprompt": 535,
      "Ġmetadata": 536,
      "Ġcls": 537,
      "Ġelif": 538,
      "updated": 539,
      "stats": 540,
      "\"{": 541,
      "MO": 542,
      "ON": 543,
      "[:": 544,
      "current": 545,
      "ds": 546,
      "full": 547,
      "wer": 548,
      "Ġco": 549,
      "url": 550,
      "(\"\\": 551,
      "pen": 552,
      "Ġneighbor": 553,
      "cls": 554,
      "types": 555,
      "Ġsource": 556,
      "Ġstructure": 557,
      "antic": 558,
      "Ġsem": 559,
      "join": 560,
      "',": 561,
      "']": 562,
      ".\"\"\"": 563,
      ":{": 564,
      "Cl": 565,
      "bd": 566,
      "ces": 567,
      "conf": 568,
      "lam": 569,
      "pr": 570,
      "score": 571,
      "use": 572,
      "ved": 573,
      "}\"": 574,
      "ĠF": 575,
      "Ġ_": 576,
      "Ġedge": 577,
      "inst": 578,
      "erate": 579,
      "une": 580,
      "Ġmemory": 581,
      "ontent": 582,
      "upstream": 583,
      "Ġask": 584,
      "Ġisinst": 585,
      "}::{": 586,
      "bda": 587,
      "lambda": 588,
      "Ġisinstance": 589,
      ")}": 590,
      "None": 591,
      "base": 592,
      "dd": 593,
      "ir": 594,
      "now": 595,
      "ove": 596,
      "{}": 597,
      "ĠG": 598,
      "Ġor": 599,
      "Ġdat": 600,
      "Ġen": 601,
      "rel": 602,
      "ret": 603,
      "result": 604,
      "oner": 605,
      "etime": 606,
      "raw": 607,
      "Ġ\"\\": 608,
      "lear": 609,
      "rock": 610,
      "Ġof": 611,
      "Ġexist": 612,
      "update": 613,
      "embeddings": 614,
      "ĠMemoryGraph": 615,
      "Ġ{}).": 616,
      "ize": 617,
      "Ġdatetime": 618,
      "]:": 619,
      "collection": 620,
      "global": 621,
      "list": 622,
      "ok": 623,
      "prompt": 624,
      "tr": 625,
      "read": 626,
      "reated": 627,
      "ature": 628,
      "odel": 629,
      "Ġ==": 630,
      "Ġcollection": 631,
      "Ġimports": 632,
      "enerate": 633,
      "Ġopen": 634,
      "que": 635,
      "Ġdict": 636,
      "imports": 637,
      "Ġexp": 638,
      "Ġcontexts": 639,
      "calls": 640,
      "ĠEx": 641,
      "levant": 642,
      "ĠList": 643,
      "('": 644,
      "00": 645,
      ":\\": 646,
      "EL": 647,
      "ME": 648,
      "au": 649,
      "age": 650,
      "ber": 651,
      "cay": 652,
      "iden": 653,
      "move": 654,
      "ou": 655,
      "oform": 656,
      "}\")": 657,
      "ĠD": 658,
      "Ġraw": 659,
      "relation": 660,
      "ses": 661,
      "Ġch": 662,
      "Ġname": 663,
      "ody": 664,
      "Ġmodule": 665,
      "().": 666,
      "lower": 667,
      "asses": 668,
      "Ġclusters": 669,
      "utf": 670,
      "functions": 671,
      "line": 672,
      "umber": 673,
      "Ġconcepts": 674,
      "isoform": 675,
      "retrie": 676,
      "idence": 677,
      "isoformat": 678,
      "Buil": 679,
      "IL": 680,
      "St": 681,
      "act": 682,
      "content": 683,
      "new": 684,
      "neighbor": 685,
      "ry": 686,
      "}\\": 687,
      "ðŁ": 688,
      "Ġ'": 689,
      "ĠO": 690,
      "ĠGraph": 691,
      "Ġque": 692,
      "remove": 693,
      "args": 694,
      "Ġ\"\")": 695,
      "Ġtry": 696,
      "Ġparser": 697,
      "Ġscore": 698,
      "files": 699,
      "Ġbase": 700,
      "Ġwh": 701,
      "ient": 702,
      "Ġexcept": 703,
      "verse": 704,
      "ĠSu": 705,
      "Ġset": 706,
      "clusters": 707,
      "ĠAdd": 708,
      "Ġgenerate": 709,
      "rank": 710,
      "cess": 711,
      "config": 712,
      "prune": 713,
      "user": 714,
      "results": 715,
      "ILE": 716,
      "Store": 717,
      ":\",": 718,
      "Dat": 719,
      "FILE": 720,
      "RY": 721,
      "][\"": 722,
      "ak": 723,
      "body": 724,
      "cod": 725,
      "gt": 726,
      "ning": 727,
      "sform": 728,
      "ude": 729,
      "ump": 730,
      "val": 731,
      "wor": 732,
      "ĠB": 733,
      "ĠT": 734,
      "ĠU": 735,
      "Ġsummary": 736,
      "Ġ__": 737,
      "Ġkey": 738,
      "dent": 739,
      "init": 740,
      "ors": 741,
      "art": 742,
      "ional": 743,
      "itial": 744,
      "Ġall": 745,
      "orted": 746,
      "clone": 747,
      "classes": 748,
      "clude": 749,
      "Ġretriever": 750,
      "load": 751,
      "-----------": 752,
      "Ġsorted": 753,
      "ence": 754,
      "Ġover": 755,
      "Ġrepository": 756,
      "Ġdoc": 757,
      "Ġrelations": 758,
      "chain": 759,
      "Ġ---------------------------": 760,
      "ransform": 761,
      "ĠID": 762,
      "Ġfunctions": 763,
      "MORY": 764,
      "Ġneighbors": 765,
      "learning": 766,
      "Ġexpan": 767,
      "MEMORY": 768,
      "ault": 769,
      "agerank": 770,
      "ĠGraphStore": 771,
      "Ġqueue": 772,
      "cessors": 773,
      "Data": 774,
      "coding": 775,
      "ransformer": 776,
      "05": 777,
      "=[\"": 778,
      "={}": 779,
      "De": 780,
      "Node": 781,
      "]=": 782,
      "bb": 783,
      "buil": 784,
      "cur": 785,
      "dump": 786,
      "ebb": 787,
      "ier": 788,
      "ian": 789,
      "ld": 790,
      "ly": 791,
      "let": 792,
      "mat": 793,
      "model": 794,
      "of": 795,
      "per": 796,
      "ror": 797,
      "rit": 798,
      "rgs": 799,
      "Ġ5": 800,
      "ĠH": 801,
      "ĠP": 802,
      "Ġlin": 803,
      "Ġlist": 804,
      "sem": 805,
      "ctx": 806,
      "Ġpl": 807,
      "Ġpro": 808,
      "ity": 809,
      "Ġan": 810,
      "client": 811,
      "default": 812,
      "look": 813,
      "uple": 814,
      "ptional": 815,
      "Ġdownstream": 816,
      "ĠRet": 817,
      "ute": 818,
      "plan": 819,
      "Ġfiles": 820,
      "top": 821,
      "ĠArgs": 822,
      "Ġ**": 823,
      "ĠIn": 824,
      "ĠRepository": 825,
      "Ġsemantic": 826,
      "related": 827,
      "ĠDict": 828,
      "ĠOptional": 829,
      "ĠSummar": 830,
      "Ġexpanded": 831,
      "ebbian": 832,
      "rite": 833,
      "lookup": 834,
      "._": 835,
      "DEL": 836,
      "IO": 837,
      "LM": 838,
      "]]": 839,
      "created": 840,
      "doc": 841,
      "dir": 842,
      "emp": 843,
      "her": 844,
      "has": 845,
      "ire": 846,
      "imp": 847,
      "ken": 848,
      "memory": 849,
      "metadata": 850,
      "number": 851,
      "put": 852,
      "ront": 853,
      "tes": 854,
      "ytes": 855,
      "Ġ@": 856,
      "Ġon": 857,
      "ĠTrue": 858,
      "Ġupdated": 859,
      "ĠNone": 860,
      "ĠĠĠĠĠĠĠĠĠĠĠĠĠĠĠĠĠĠĠĠĠĠĠĠĠĠĠ": 861,
      "sted": 862,
      "Ġfie": 863,
      "Ġreverse": 864,
      "erature": 865,
      "edrock": 866,
      "Ġconf": 867,
      "Ġ\")": 868,
      "Ġinclude": 869,
      "Ġinput": 870,
      "mplet": 871,
      "Ġpre": 872,
      "Ġal": 873,
      "Ġare": 874,
      "Ġformat": 875,
      "Ġnp": 876,
      "Ġnx": 877,
      "added": 878,
      "lta": 879,
      "Ġbot": 880,
      "\"])": 881,
      "\"],": 882,
      "\"][": 883,
      "bedrock": 884,
      "weights": 885,
      "ollect": 886,
      "util": 887,
      "plic": 888,
      "Ġtype": 889,
      "token": 890,
      "methods": 891,
      "vec": 892,
      "__(": 893,
      "Ġglobal": 894,
      "=[]": 895,
      "Ġ-----------------": 896,
      "Ġfolders": 897,
      "Ġdelta": 898,
      "MODEL": 899,
      "irs": 900,
      "Ġencoding": 901,
      "curs": 902,
      "Ġlines": 903,
      "semantic": 904,
      "Ġplan": 905,
      "emperature": 906,
      "rontier": 907,
      "ytesIO": 908,
      "Ġfield": 909,
      "Ġboto": 910,
      "tokens": 911,
      "'][": 912,
      "')}": 913,
      "((": 914,
      ")\")": 915,
      ".\"": 916,
      "Er": 917,
      "In": 918,
      "ION": 919,
      "MemoryGraph": 920,
      "Parser": 921,
      "Ret": 922,
      "You": 923,
      "ace": 924,
      "ail": 925,
      "ack": 926,
      "aved": 927,
      "by": 928,
      "bin": 929,
      "back": 930,
      "ccessors": 931,
      "eature": 932,
      "fact": 933,
      "ges": 934,
      "gge": 935,
      "ice": 936,
      "mem": 937,
      "mory": 938,
      "mbin": 939,
      "oice": 940,
      "pre": 941,
      "pon": 942,
      "ping": 943,
      "sion": 944,
      "sort": 945,
      "vo": 946,
      "we": 947,
      "},": 948,
      "})\")": 949,
      "Ġ.": 950,
      "Ġy": 951,
      "Ġsummar": 952,
      "Ġ---": 953,
      "decay": 954,
      "oning": 955,
      "start": 956,
      "Ġrel": 957,
      "Ġrelevant": 958,
      "Ġcall": 959,
      "Ġcreated": 960,
      "Ġtgt": 961,
      "Ġpath": 962,
      "pop": 963,
      "Ġast": 964,
      "\",{}": 965,
      "successors": 966,
      "urns": 967,
      "Ġclone": 968,
      "Ġsaved": 969,
      "ask": 970,
      "and": 971,
      "folders": 972,
      "ĠCh": 973,
      "ĠCl": 974,
      "allback": 975,
      "GraphBuil": 976,
      "plain": 977,
      "place": 978,
      "Ġtyping": 979,
      "Ġbuilder": 980,
      "ĠAn": 981,
      "Ġ[]):": 982,
      "ĠCodeParser": 983,
      "ĠCodeRet": 984,
      "ĠCodeGraphBuil": 985,
      "ĠRepoCl": 986,
      "Ġdecay": 987,
      "Ġexisting": 988,
      "Ġchoice": 989,
      "retrieved": 990,
      "Ġwhile": 991,
      "words": 992,
      "build": 993,
      "ĠHebbian": 994,
      "ĠReturns": 995,
      "ĠSummaries": 996,
      "Ġconfidence": 997,
      "ollector": 998,
      "Error": 999,
      "factory": 1000,
      "ggested": 1001,
      "memmory": 1002,
      "Ġsummarize": 1003,
      "ĠCodeRetriever": 1004,
      "ĠCodeGraphBuilder": 1005,
      "ĠRepoCloner": 1006,
      ".')}": 1007,
      "01": 1008,
      "12": 1009,
      ":.": 1010,
      ":\")": 1011,
      "AW": 1012,
      "At": 1013,
      "Collection": 1014,
      "EG": 1015,
      "ES": 1016,
      "Ent": 1017,
      "Function": 1018,
      "IN": 1019,
      "JS": 1020,
      "LLM": 1021,
      "Name": 1022,
      "PON": 1023,
      "Re": 1024,
      "REG": 1025,
      "SE": 1026,
      "Su": 1027,
      "Transformer": 1028,
      "])": 1029,
      "bute": 1030,
      "cal": 1031,
      "fo": 1032,
      "ibute": 1033,
      "kle": 1034,
      "lap": 1035,
      "mes": 1036,
      "mak": 1037,
      "oic": 1038,
      "pdat": 1039,
      "parse": 1040,
      "pagerank": 1041,
      "rc": 1042,
      "spl": 1043,
      "swer": 1044,
      "spon": 1045,
      "transformer": 1046,
      "with": 1047,
      "write": 1048,
      "ype": 1049,
      "yth": 1050,
      "Ġ<": 1051,
      "Ġ>": 1052,
      "Ġ]": 1053,
      "Ġe": 1054,
      "ĠčĊ": 1055,
      "Ġsummaries": 1056,
      "Ġuser": 1057,
      "Ġutil": 1058,
      "redent": 1059,
      "Ġfull": 1060,
      "ral": 1061,
      "ract": 1062,
      "Ġrespon": 1063,
      "edirs": 1064,
      "Ġcontent": 1065,
      "len": 1066,
      "Ġtemperature": 1067,
      "Ġio": 1068,
      "Ġit": 1069,
      "------": 1070,
      "Ġinitial": 1071,
      "ntence": 1072,
      "Ġpic": 1073,
      "Ġpagerank": 1074,
      "root": 1075,
      "\"))": 1076,
      "\"):": 1077,
      "Ġad": 1078,
      "extract": 1079,
      "Ġne": 1080,
      "uned": 1081,
      "Ġmin": 1082,
      "Ġmodel": 1083,
      "Ġretrie": 1084,
      "()),": 1085,
      "romad": 1086,
      "Ġcloner": 1087,
      "local": 1088,
      "Ġsrc": 1089,
      "Ġprune": 1090,
      "ids": 1091,
      "ances": 1092,
      "pth": 1093,
      "end": 1094,
      "encode": 1095,
      "Ġstring": 1096,
      "istances": 1097,
      "Ġdo": 1098,
      "ĠRAW": 1099,
      "ĠRES": 1100,
      "applic": 1101,
      "complet": 1102,
      "otal": 1103,
      "ĠSent": 1104,
      "ĠStr": 1105,
      "imum": 1106,
      "Ġthis": 1107,
      "classmethod": 1108,
      "choic": 1109,
      "ument": 1110,
      "Ġ----------------------": 1111,
      "ials": 1112,
      "ialize": 1113,
      "ayload": 1114,
      "']}\\": 1115,
      "Cloning": 1116,
      "confidence": 1117,
      "pruned": 1118,
      "scores": 1119,
      "ĠGet": 1120,
      "tribute": 1121,
      "000": 1122,
      "Ġchromad": 1123,
      "Building": 1124,
      "ðŁ§": 1125,
      "ĠBedrock": 1126,
      "ĠBytesIO": 1127,
      "enceTransformer": 1128,
      "Ġoverlap": 1129,
      "Ġdocument": 1130,
      "ĠPyth": 1131,
      "Ġprovi": 1132,
      "herit": 1133,
      "cursiv": 1134,
      "mbined": 1135,
      "voke": 1136,
      "Ġ---\\": 1137,
      "Attribute": 1138,
      "Enter": 1139,
      "JSON": 1140,
      "PONSE": 1141,
      "REGION": 1142,
      "mess": 1143,
      "makedirs": 1144,
      "pdate": 1145,
      "split": 1146,
      "transformers": 1147,
      "redentials": 1148,
      "Ġresponse": 1149,
      "Ġpickle": 1150,
      "ĠRESPONSE": 1151,
      "application": 1152,
      "completion": 1153,
      "ĠSentenceTransformer": 1154,
      "ĠStructure": 1155,
      "choices": 1156,
      "Ġchromadb": 1157,
      "ĠPython": 1158,
      "\"#": 1159,
      "\"-": 1160,
      "\"\\": 1161,
      "'],": 1162,
      "([": 1163,
      ")]": 1164,
      ",_": 1165,
      "10": 1166,
      "20": 1167,
      "BE": 1168,
      "Call": 1169,
      "DD": 1170,
      "EV": 1171,
      "Ed": 1172,
      "Em": 1173,
      "Ex": 1174,
      "Get": 1175,
      "MBE": 1176,
      "No": 1177,
      "Tuple": 1178,
      "]):": 1179,
      "_{": 1180,
      "arent": 1181,
      "ake": 1182,
      "cc": 1183,
      "cies": 1184,
      "distances": 1185,
      "ere": 1186,
      "fs": 1187,
      "frontier": 1188,
      "fere": 1189,
      "gm": 1190,
      "np": 1191,
      "nce": 1192,
      "op": 1193,
      "ool": 1194,
      "py": 1195,
      "ppl": 1196,
      "sing": 1197,
      "snippets": 1198,
      "ssion": 1199,
      "scc": 1200,
      "tgt": 1201,
      "total": 1202,
      "vie": 1203,
      "{',": 1204,
      "}]": 1205,
      "}\"]": 1206,
      "}...\")": 1207,
      "Ġ&": 1208,
      "Ġ/": 1209,
      "ĠN": 1210,
      "ĠQ": 1211,
      "Ġh": 1212,
      "Ġl": 1213,
      "Ġlo": 1214,
      "Ġembedding": 1215,
      "Ġstat": 1216,
      "Ġupdate": 1217,
      "Ġembeddings": 1218,
      "Ġargs": 1219,
      "Ġlearning": 1220,
      "Ġctx": 1221,
      "ĠĠčĊ": 1222,
      "ĠĠĠĠĠĠĠĠĠĠĠĠĠĠĠĠ": 1223,
      "depen": 1224,
      "decessors": 1225,
      "ree": 1226,
      "relevant": 1227,
      "replace": 1228,
      "attr": 1229,
      "ines": 1230,
      "inherit": 1231,
      "ser": 1232,
      "set": 1233,
      "segm": 1234,
      "Ġfrontier": 1235,
      "Ġfail": 1236,
      "Ġfeature": 1237,
      "arg": 1238,
      "arch": 1239,
      "arity": 1240,
      "least": 1241,
      "Ġtuple": 1242,
      "Ġids": 1243,
      "Ġindent": 1244,
      "Ġinfo": 1245,
      "exist": 1246,
      "Ġadd": 1247,
      "alse": 1248,
      "Ġnumber": 1249,
      "Ġmo": 1250,
      "defines": 1251,
      "(),": 1252,
      "roma": 1253,
      "lore": 1254,
      "repository": 1255,
      "Ġsh": 1256,
      "Ġsim": 1257,
      "eno": 1258,
      "ilarity": 1259,
      "Ġby": 1260,
      "Ġbool": 1261,
      "istance": 1262,
      "ception": 1263,
      "Ġ[(": 1264,
      "Ġ[{": 1265,
      "Ġdire": 1266,
      "Ġdfs": 1267,
      "Ġdistance": 1268,
      "aximum": 1269,
      "bedding": 1270,
      "elet": 1271,
      "ĠSt": 1272,
      "ĠSimp": 1273,
      "Ġsession": 1274,
      "updates": 1275,
      "lineno": 1276,
      "Ġgit": 1277,
      "Ġ}],": 1278,
      "=[{": 1279,
      "ĠMaximum": 1280,
      "geData": 1281,
      "ĠEMBE": 1282,
      "Ġcodebase": 1283,
      "ized": 1284,
      "keys": 1285,
      "levance": 1286,
      "ĠLEV": 1287,
      "dencies": 1288,
      "Ġmetadatas": 1289,
      "Ġcos": 1290,
      "Ġcombined": 1291,
      "ĠFallback": 1292,
      "ĠFalse": 1293,
      "ready": 1294,
      "ĠException": 1295,
      "retrieve": 1296,
      "Ġ'.": 1297,
      "Ġbases": 1298,
      "ĠTarget": 1299,
      "ĠUpdate": 1300,
      "loads": 1301,
      "Def": 1302,
      "NodeData": 1303,
      "dumps": 1304,
      "Ġpreds": 1305,
      "Ġalready": 1306,
      "Ġyour": 1307,
      "\",{}).": 1308,
      "ĠChroma": 1309,
      "ĠCluster": 1310,
      "ĠAny": 1311,
      "ING": 1312,
      "Suggested": 1313,
      "Ġretrieved": 1314,
      "Ġdoes": 1315,
      "ðŁ§ł": 1316,
      "Ġdocuments": 1317,
      "Ġprovided": 1318,
      "DDING": 1319,
      "Embedding": 1320,
      "ference": 1321,
      "pply": 1322,
      "view": 1323,
      "dependencies": 1324,
      "inherits": 1325,
      "segment": 1326,
      "Ġfailed": 1327,
      "Ġtuples": 1328,
      "exists": 1329,
      "Ġsimilarity": 1330,
      "Ġdirect": 1331,
      "ĠSimple": 1332,
      "ĠEMBEDDING": 1333,
      "ĠLEVEL": 1334,
      "\".": 1335,
      "')": 1336,
      ",\"": 1337,
      "->": 1338,
      ".\\": 1339,
      ".{": 1340,
      "/.": 1341,
      "23": 1342,
      "31": 1343,
      "85": 1344,
      "='": 1345,
      "AT": 1346,
      "AME": 1347,
      "BF": 1348,
      "BytesIO": 1349,
      "CH": 1350,
      "Co": 1351,
      "Collector": 1352,
      "Di": 1353,
      "Id": 1354,
      "Import": 1355,
      "Lo": 1356,
      "MA": 1357,
      "Min": 1358,
      "ND": 1359,
      "Not": 1360,
      "NAME": 1361,
      "OT": 1362,
      "OMA": 1363,
      "Par": 1364,
      "Parsed": 1365,
      "PAT": 1366,
      "RL": 1367,
      "Rem": 1368,
      "ROMA": 1369,
      "Ser": 1370,
      "TE": 1371,
      "Type": 1372,
      "Top": 1373,
      "WS": 1374,
      "Write": 1375,
      "]}": 1376,
      "]]:": 1377,
      "ab": 1378,
      "aw": 1379,
      "ave": 1380,
      "aded": 1381,
      "ach": 1382,
      "ages": 1383,
      "ccept": 1384,
      "cute": 1385,
      "credentials": 1386,
      "do": 1387,
      "dgeData": 1388,
      "ep": 1389,
      "ection": 1390,
      "eded": 1391,
      "eck": 1392,
      "east": 1393,
      "ecute": 1394,
      "feature": 1395,
      "gion": 1396,
      "hro": 1397,
      "hebbian": 1398,
      "ide": 1399,
      "ior": 1400,
      "iction": 1401,
      "ias": 1402,
      "iated": 1403,
      "iLM": 1404,
      "kl": 1405,
      "kx": 1406,
      "kelet": 1407,
      "mist": 1408,
      "main": 1409,
      "nC": 1410,
      "nor": 1411,
      "ner": 1412,
      "nam": 1413,
      "nal": 1414,
      "nid": 1415,
      "nap": 1416,
      "nTop": 1417,
      "os": 1418,
      "pro": 1419,
      "pic": 1420,
      "parser": 1421,
      "payload": 1422,
      "pkl": 1423,
      "rule": 1424,
      "rvi": 1425,
      "runt": 1426,
      "sy": 1427,
      "sim": 1428,
      "soc": 1429,
      "tra": 1430,
      "ted": 1431,
      "tol": 1432,
      "temperature": 1433,
      "ub": 1434,
      "us": 1435,
      "uction": 1436,
      "ult": 1437,
      "uery": 1438,
      "vst": 1439,
      "vail": 1440,
      "wb": 1441,
      "wal": 1442,
      "ynt": 1443,
      "}.{": 1444,
      "~/.": 1445,
      "âĨ": 1446,
      "Ġ2": 1447,
      "ĠK": 1448,
      "Ġat": 1449,
      "Ġet": 1450,
      "Ġ):": 1451,
      "Ġun": 1452,
      "Ġstore": 1453,
      "Ġvi": 1454,
      "Ġembed": 1455,
      "Ġent": 1456,
      "Ġ],": 1457,
      "ĠTr": 1458,
      "Ġlev": 1459,
      "Ġuse": 1460,
      "Ġupstream": 1461,
      "Ġstart": 1462,
      "Ġroot": 1463,
      "Ġextract": 1464,
      "ĠJSON": 1465,
      "ĠNodeData": 1466,
      "Ġrule": 1467,
      "Ġ~/.": 1468,
      "ĠâĨ": 1469,
      "Įį": 1470,
      "ĵģ": 1471,
      "ĠĠĠčĊ": 1472,
      "decode": 1473,
      "depth": 1474,
      "devst": 1475,
      "reate": 1476,
      "reverse": 1477,
      "atch": 1478,
      "only": 1479,
      "ine": 1480,
      "invoke": 1481,
      "sentence": 1482,
      "stion": 1483,
      "stand": 1484,
      "etwor": 1485,
      "etwe": 1486,
      "Ġfallback": 1487,
      "ray": 1488,
      "Ġread": 1489,
      "Ġrecursiv": 1490,
      "Ġrelevance": 1491,
      "Ġregion": 1492,
      "ernal": 1493,
      "pha": 1494,
      "Ġclear": 1495,
      "Ġcollector": 1496,
      "Ġcredentials": 1497,
      "ary": 1498,
      "array": 1499,
      "Ġ\"\"": 1500,
      "Ġ\").": 1501,
      "Ġ\"__": 1502,
      "Ġ\"->": 1503,
      "gether": 1504,
      "ions": 1505,
      "Ġtime": 1506,
      "Ġtask": 1507,
      "Ġtree": 1508,
      "Ġimp": 1509,
      "(\".": 1510,
      "Ġparse": 1511,
      "Ġpayload": 1512,
      "Ġparent": 1513,
      "itCo": 1514,
      "role": 1515,
      "roup": 1516,
      "\"),": 1517,
      "\")),": 1518,
      "Ġaccept": 1519,
      "Ġavail": 1520,
      "dataclass": 1521,
      "alg": 1522,
      "aly": 1523,
      "external": 1524,
      "Ġnid": 1525,
      "Ġnetwor": 1526,
      "struction": 1527,
      "cloner": 1528,
      "Ġman": 1529,
      "Ġmult": 1530,
      "Ġmatch": 1531,
      "Ġ{\"": 1532,
      "()['": 1533,
      "Ġclasses": 1534,
      "mmand": 1535,
      "ading": 1536,
      "derstand": 1537,
      "Ġskelet": 1538,
      "Ġimportant": 1539,
      "summariz": 1540,
      "ener": 1541,
      "encoding": 1542,
      "Ġbody": 1543,
      "Ġbedrock": 1544,
      "Ġbetwe": 1545,
      "codeError": 1546,
      "iven": 1547,
      "istic": 1548,
      "Ġwe": 1549,
      "Ġwas": 1550,
      "Ġwant": 1551,
      "Ġtogether": 1552,
      "Ġdefinit": 1553,
      "\"].": 1554,
      "\"][\"": 1555,
      "Ġdirs": 1556,
      "Ġdiction": 1557,
      "sity": 1558,
      "important": 1559,
      "Ġexplic": 1560,
      "Ġexplain": 1561,
      "Ġexecute": 1562,
      "ely": 1563,
      "ĠCollection": 1564,
      "version": 1565,
      "verview": 1566,
      "Ġ1000": 1567,
      "anthro": 1568,
      "ĠSet": 1569,
      "ĠSource": 1570,
      "ĠSnippets": 1571,
      "Ġassoc": 1572,
      "viou": 1573,
      "Ġsentence": 1574,
      "Ġsearch": 1575,
      "Ġservi": 1576,
      "Ġ({": 1577,
      "clustering": 1578,
      "ĠRelevant": 1579,
      "ĠReplace": 1580,
      "ĠRecursiv": 1581,
      "ĠReference": 1582,
      "ĠApply": 1583,
      "ĠAWS": 1584,
      "ithub": 1585,
      ").\"\"\"": 1586,
      "iple": 1587,
      "linalg": 1588,
      "Ġ[])]": 1589,
      "__\":": 1590,
      "modules": 1591,
      "Ġgroup": 1592,
      "Ġgiven": 1593,
      "ĠModule": 1594,
      "Ġ{})": 1595,
      "Ġ{}):": 1596,
      "umerate": 1597,
      "ĠEn": 1598,
      "ĠEND": 1599,
      "ĠEdgeData": 1600,
      "()))}": 1601,
      "izing": 1602,
      "occurs": 1603,
      "Ġmethods": 1604,
      "ĠIf": 1605,
      "concepts": 1606,
      "Ġdepth": 1607,
      "density": 1608,
      "Ġcount": 1609,
      "Ġcomplet": 1610,
      "Ġstructures": 1611,
      "'])": 1612,
      "']}": 1613,
      "'])}": 1614,
      "Clone": 1615,
      "ĠFor": 1616,
      "bases": 1617,
      "ĠGlobal": 1618,
      "ĠGenerate": 1619,
      "ĠGitCo": 1620,
      "ĠGithub": 1621,
      "Ġend": 1622,
      "Ġenv": 1623,
      "Ġenumerate": 1624,
      "retriever": 1625,
      "Ġexists": 1626,
      "readonly": 1627,
      "Ġexplore": 1628,
      "ĠExp": 1629,
      "ĠExtra": 1630,
      "aude": 1631,
      "retrieval": 1632,
      "ðŁĮį": 1633,
      "ðŁĵģ": 1634,
      "ĠOverview": 1635,
      "Ġbased": 1636,
      "Ġwhat": 1637,
      "ĠSuggested": 1638,
      "Ġsetup": 1639,
      "valid": 1640,
      "value": 1641,
      "ĠType": 1642,
      "ĠUn": 1643,
      "ĠURL": 1644,
      "itialized": 1645,
      "Ġoverwrite": 1646,
      "Deser": 1647,
      "DecodeError": 1648,
      "Nodes": 1649,
      "builder": 1650,
      "perty": 1651,
      "Ġ512": 1652,
      "Ġ5000": 1653,
      "Ġproper": 1654,
      "Ġanswer": 1655,
      "Ġanaly": 1656,
      "planner": 1657,
      "ĠInitial": 1658,
      "ĠInclude": 1659,
      "ĠInvoke": 1660,
      "ĠSummary": 1661,
      "Ġones": 1662,
      "Ġonly": 1663,
      "Ġpreviou": 1664,
      "Ġalpha": 1665,
      ".\".": 1666,
      "Instruction": 1667,
      "Initialized": 1668,
      "preds": 1669,
      "predecessors": 1670,
      "weak": 1671,
      "Ġyou": 1672,
      "Ġrelated": 1673,
      "\",{}):": 1674,
      "ĠCheck": 1675,
      "ĠClaude": 1676,
      "ĠAnswer": 1677,
      "123": 1678,
      "FunctionDef": 1679,
      "Repo": 1680,
      "Ġ>=": 1681,
      "Ġutils": 1682,
      "Ġutility": 1683,
      "ĠcontentType": 1684,
      "Ġinitialize": 1685,
      "Ġinitializing": 1686,
      "Ġadding": 1687,
      "Ġadded": 1688,
      "Ġnei": 1689,
      "Ġneeded": 1690,
      "ĠmodelId": 1691,
      "JSONDecodeError": 1692,
      "message": 1693,
      "messages": 1694,
      "\"##": 1695,
      "2023": 1696,
      "CallCollector": 1697,
      "Edges": 1698,
      "ĠNOT": 1699,
      "ĠQuery": 1700,
      "Ġloaded": 1701,
      "Ġmov": 1702,
      "Ġshutil": 1703,
      "Ġ[{\"": 1704,
      "Ġcosine": 1705,
      "BFS": 1706,
      "CHROMA": 1707,
      "DiGraph": 1708,
      "Loading": 1709,
      "MiniLM": 1710,
      "Parsing": 1711,
      "PATH": 1712,
      "Remove": 1713,
      "Serialize": 1714,
      "able": 1715,
      "aws": 1716,
      "mistral": 1717,
      "norm": 1718,
      "names": 1719,
      "napse": 1720,
      "property": 1721,
      "runtime": 1722,
      "synapse": 1723,
      "tolist": 1724,
      "walk": 1725,
      "yntax": 1726,
      "Ġetc": 1727,
      "Ġvia": 1728,
      "ĠTry": 1729,
      "Ġlevel": 1730,
      "ĠâĨĴ": 1731,
      "devstral": 1732,
      "reversed": 1733,
      "Ġrecursively": 1734,
      "Ġ\"->\",": 1735,
      "Ġavailable": 1736,
      "Ġnetworkx": 1737,
      "Ġmultiple": 1738,
      "mmandError": 1739,
      "Ġskeleton": 1740,
      "summarizer": 1741,
      "Ġbetween": 1742,
      "istics": 1743,
      "Ġdefinitions": 1744,
      "Ġdictionary": 1745,
      "Ġexplicit": 1746,
      "anthropic": 1747,
      "Ġassociated": 1748,
      "Ġservice": 1749,
      "ĠRecursive": 1750,
      "Ġ[])])}": 1751,
      "Ġcompleted": 1752,
      "'])}\")": 1753,
      "ĠGitCommandError": 1754,
      "Deserialize": 1755,
      "Ġprevious": 1756,
      "Instructions": 1757
    },
    "merges": [
      "Ġ Ġ",
      "ĠĠ ĠĠ",
      "č Ċ",
      "ĠĠ Ġ",
      "ĠĠĠĠ ĠĠĠĠ",
      "d e",
      "r e",
      "ĠĠĠĠ ĠĠĠ",
      "a t",
      "o de",
      "o n",
      "i n",
      "- -",
      "n ode",
      "s e",
      "o r",
      "s t",
      "e t",
      "ĠĠĠĠĠĠĠĠ ĠĠĠ",
      "Ġ f",
      "r a",
      "Ġ =",
      "c t",
      "Ġ re",
      "e r",
      "p h",
      "e d",
      "ra ph",
      "Ġ c",
      "a r",
      "Ġ \"",
      "l e",
      "l f",
      "se lf",
      "g et",
      "g raph",
      "i on",
      "Ġ t",
      "u r",
      "Ġ i",
      "-- --",
      "d at",
      "Ġ in",
      "m p",
      "e s",
      "Ġ self",
      "( \"",
      "e x",
      "n t",
      "Ġ p",
      "p o",
      "c e",
      "i t",
      "r o",
      "Ġ node",
      "ĠĠĠĠĠĠĠĠ ĠĠĠĠĠĠĠ",
      "\" )",
      "Ġ a",
      "a m",
      "dat a",
      "\" ,",
      "or t",
      "s u",
      "p e",
      ") :",
      "a l",
      "o l",
      "mp ort",
      "\" :",
      "Ġf or",
      "ex t",
      "Ġ n",
      "st r",
      "u n",
      "c l",
      "o d",
      "e m",
      "Ġ m",
      "i le",
      "node s",
      "at ion",
      "Ġre t",
      "in g",
      "Ġ {",
      "at h",
      "on t",
      "ed g",
      "i g",
      "de f",
      "ur n",
      "p ath",
      "t y",
      "Ġret urn",
      "( )",
      "ct ion",
      "ro m",
      "Ġc l",
      "am e",
      "ig h",
      "e igh",
      "Ġi f",
      "l o",
      "m m",
      "---- ----",
      "Ġ #",
      "a d",
      "de r",
      "mm ar",
      "\" \"",
      "l t",
      "re po",
      "o re",
      "Ġ s",
      "ĠĠĠĠĠĠĠĠ ĠĠĠĠĠĠĠĠĠĠĠ",
      "Ġi mport",
      "Ġp r",
      "ont ext",
      "a s",
      "or y",
      "ty pe",
      "i d",
      "in t",
      "u re",
      "su mmar",
      "Ġpr int",
      "a n",
      "u st",
      "ust er",
      "n ame",
      "u p",
      "f ile",
      "p t",
      "ar get",
      "e n",
      "ar se",
      "i l",
      "Ġ b",
      "ol der",
      "c ode",
      "Ġ o",
      "f rom",
      "i v",
      "u ct",
      "Ġ graph",
      "Ġ str",
      "su lt",
      "i st",
      "Ġ w",
      "Ġt o",
      "uct ure",
      "Ġre po",
      "eigh t",
      "q u",
      "Ġ def",
      "ĠĠĠĠ čĊ",
      "i e",
      "\" ]",
      "ct iv",
      "ce pt",
      "ctiv ation",
      "o ur",
      "Ġ [",
      "edg es",
      "h od",
      "Ġ d",
      "et hod",
      "l l",
      "n d",
      "s it",
      "[ \"",
      "u il",
      "Ġ 0",
      "ĠĠĠĠĠĠĠĠ čĊ",
      "un ction",
      "our ce",
      "Ġre sult",
      "er y",
      "as s",
      "Ġ R",
      "edg e",
      "a p",
      "a x",
      "i mport",
      "Ġ ex",
      "qu ery",
      "= \"",
      "c o",
      "i ct",
      "st ore",
      "un c",
      "ad d",
      "b ed",
      "e l",
      "f older",
      "l ation",
      "o t",
      "o w",
      "Ġ C",
      "al l",
      "e w",
      "u le",
      "v er",
      "Ġ +",
      "re am",
      "st ream",
      "em ory",
      "G raph",
      "i c",
      "w eight",
      "at e",
      "arse d",
      "Ġ 1",
      "ĠĠĠĠĠĠĠĠ ĠĠĠĠĠĠĠĠĠĠĠĠĠĠĠ",
      "re nt",
      "str ucture",
      "od ule",
      "summar y",
      "] .",
      "c ontext",
      "on cept",
      "ol le",
      ". .",
      "a nt",
      "Ġ S",
      "Ġc ontext",
      "Ġa s",
      "Ġcl uster",
      "a ctivation",
      "d ing",
      "j s",
      "p es",
      "u e",
      "v i",
      "Ġ se",
      "ur rent",
      "js on",
      "r ie",
      "u t",
      "Ġ el",
      "Ġt arget",
      "i es",
      "p l",
      "u nt",
      "Ġf ile",
      "up dat",
      "Ġ (",
      "Ġ\" \"\"",
      "Ġt y",
      "pe nd",
      "em bed",
      "Ġ+ =",
      "e nt",
      "Ġ data",
      "Ġre lation",
      "ap pend",
      "olle ction",
      "s ource",
      "t o",
      "on e",
      "Ġn ew",
      "cl uster",
      "Ġb uil",
      ") ,",
      "] ,",
      "i m",
      "k e",
      "m ethod",
      "Ġt h",
      "mp t",
      "ro mpt",
      "-------- --------",
      "Ġresult s",
      "ĠR e",
      "co unt",
      "t arget",
      "v e",
      "Ġ A",
      "it h",
      "cl ass",
      ") .",
      "i p",
      ". \")",
      "b or",
      "f or",
      "f unction",
      "l in",
      "n stream",
      "Ġ -",
      "at ed",
      "eigh bor",
      "Ġo s",
      "Ġ[ ]",
      "ow nstream",
      "embed ding",
      "T r",
      "[ '",
      "_ _",
      "c ore",
      "m odule",
      "Ġ g",
      "Ġ }",
      "Ġ get",
      "de d",
      "it em",
      "summar ies",
      "an ce",
      "vi sit",
      "Ġbuil d",
      "ip p",
      "= [",
      "a se",
      "a data",
      "c h",
      "c all",
      "n ipp",
      "Ġ )",
      "Ġ M",
      "Ġ query",
      "et s",
      "et adata",
      "Ġ{ }",
      "\"\" \"",
      "nipp ets",
      "( ):",
      "] [",
      "d ict",
      "g e",
      "t h",
      "u m",
      "u ll",
      "Ġ E",
      "on f",
      "Ġf unc",
      "Ġc ode",
      "() )",
      "Ġ- >",
      "Tr ue",
      "b al",
      "c k",
      "f unc",
      "i f",
      "i z",
      "o c",
      "t ext",
      "Ġf lo",
      "Ġc oncept",
      "Ġi s",
      "Ġnode s",
      "Ġn ot",
      "Ġm ethod",
      "lo bal",
      "Ġw ith",
      "sit ory",
      "ke y",
      "Ġth e",
      "item s",
      "visit ed",
      "a st",
      "} :",
      "Ġ x",
      "Ġ ----------------",
      "-- -",
      "st at",
      "Ġf older",
      "ra n",
      "Ġc urrent",
      "Ġp arsed",
      "Ġm ax",
      "Ġto p",
      "ĠC ode",
      "Ġty pes",
      "for m",
      "Ġflo at",
      ") )",
      "a in",
      "i al",
      "m ax",
      "r ate",
      "s h",
      "Ġ *",
      "Ġ I",
      "Ġ edges",
      "Ġ visited",
      "ĠĠĠĠĠĠĠĠ ĠĠĠĠčĊ",
      "re sh",
      "Ġin t",
      "ll m",
      "emory Graph",
      "ĠRe po",
      "g s",
      "i s",
      "p arsed",
      "le v",
      "Ġt ext",
      "Ġa ctivation",
      "Ġa nd",
      "ol d",
      "Ġcl ass",
      "Ġs nippets",
      "arse r",
      "Ġw eight",
      ".. .\")",
      "rie ver",
      "Ġel se",
      "im e",
      "th resh",
      "thresh old",
      "a y",
      "c oncept",
      "d ownstream",
      "j o",
      "Ġ L",
      "Ġ de",
      "Ġ json",
      "de n",
      "Ġf rom",
      "Ġf unction",
      "Ġp rompt",
      "Ġm etadata",
      "Ġcl s",
      "Ġel if",
      "updat ed",
      "stat s",
      "\" {",
      "M O",
      "O N",
      "[ :",
      "c urrent",
      "d s",
      "f ull",
      "w er",
      "Ġc o",
      "ur l",
      "(\" \\",
      "pe n",
      "Ġn eighbor",
      "cl s",
      "ty pes",
      "Ġs ource",
      "Ġstr ucture",
      "ant ic",
      "Ġse m",
      "jo in",
      "' ,",
      "' ]",
      ". \"\"\"",
      ": {",
      "C l",
      "b d",
      "c es",
      "c onf",
      "l am",
      "p r",
      "s core",
      "u se",
      "v ed",
      "} \"",
      "Ġ F",
      "Ġ _",
      "Ġ edge",
      "in st",
      "er ate",
      "un e",
      "Ġm emory",
      "ont ent",
      "up stream",
      "Ġas k",
      "Ġis inst",
      "}: :{",
      "bd a",
      "lam bda",
      "Ġisinst ance",
      ") }",
      "N one",
      "b ase",
      "d d",
      "i r",
      "n ow",
      "o ve",
      "{ }",
      "Ġ G",
      "Ġ or",
      "Ġ dat",
      "Ġ en",
      "re l",
      "re t",
      "re sult",
      "on er",
      "et ime",
      "ra w",
      "Ġ\" \\",
      "le ar",
      "ro ck",
      "Ġo f",
      "Ġex ist",
      "updat e",
      "embedding s",
      "ĠM emoryGraph",
      "Ġ{} ).",
      "iz e",
      "Ġdat etime",
      "] :",
      "c ollection",
      "g lobal",
      "l ist",
      "o k",
      "p rompt",
      "t r",
      "re ad",
      "re ated",
      "at ure",
      "ode l",
      "Ġ= =",
      "Ġc ollection",
      "Ġimport s",
      "en erate",
      "Ġo pen",
      "qu e",
      "Ġd ict",
      "import s",
      "Ġex p",
      "Ġcontext s",
      "call s",
      "ĠE x",
      "lev ant",
      "ĠL ist",
      "( '",
      "0 0",
      ": \\",
      "E L",
      "M E",
      "a u",
      "a ge",
      "b er",
      "c ay",
      "i den",
      "m ove",
      "o u",
      "o form",
      "} \")",
      "Ġ D",
      "Ġ raw",
      "re lation",
      "se s",
      "Ġc h",
      "Ġn ame",
      "od y",
      "Ġm odule",
      "() .",
      "lo wer",
      "as ses",
      "Ġcluster s",
      "ut f",
      "function s",
      "lin e",
      "um ber",
      "Ġconcept s",
      "is oform",
      "ret rie",
      "iden ce",
      "isoform at",
      "B uil",
      "I L",
      "S t",
      "a ct",
      "c ontent",
      "n ew",
      "n eighbor",
      "r y",
      "} \\",
      "ð Ł",
      "Ġ '",
      "Ġ O",
      "Ġ Graph",
      "Ġ que",
      "re move",
      "ar gs",
      "Ġ\" \")",
      "Ġt ry",
      "Ġp arser",
      "Ġs core",
      "file s",
      "Ġb ase",
      "Ġw h",
      "ie nt",
      "Ġex cept",
      "ver se",
      "ĠS u",
      "Ġse t",
      "cluster s",
      "ĠA dd",
      "Ġg enerate",
      "ran k",
      "ces s",
      "conf ig",
      "pr une",
      "use r",
      "result s",
      "IL E",
      "St ore",
      ": \",",
      "D at",
      "F ILE",
      "R Y",
      "] [\"",
      "a k",
      "b ody",
      "c od",
      "g t",
      "n ing",
      "s form",
      "u de",
      "u mp",
      "v al",
      "w or",
      "Ġ B",
      "Ġ T",
      "Ġ U",
      "Ġ summary",
      "Ġ __",
      "Ġ key",
      "de nt",
      "in it",
      "or s",
      "ar t",
      "ion al",
      "it ial",
      "Ġa ll",
      "ort ed",
      "cl one",
      "cl asses",
      "cl ude",
      "Ġret riever",
      "lo ad",
      "-------- ---",
      "Ġs orted",
      "en ce",
      "Ġo ver",
      "Ġrepo sitory",
      "Ġd oc",
      "Ġrelation s",
      "ch ain",
      "Ġ---------------- -----------",
      "ran sform",
      "ĠI D",
      "Ġfunction s",
      "MO RY",
      "Ġneighbor s",
      "lear ning",
      "Ġexp an",
      "ME MORY",
      "au lt",
      "age rank",
      "ĠGraph Store",
      "Ġque ue",
      "cess ors",
      "Dat a",
      "cod ing",
      "ransform er",
      "0 5",
      "= [\"",
      "= {}",
      "D e",
      "N ode",
      "] =",
      "b b",
      "b uil",
      "c ur",
      "d ump",
      "e bb",
      "i er",
      "i an",
      "l d",
      "l y",
      "l et",
      "m at",
      "m odel",
      "o f",
      "p er",
      "r or",
      "r it",
      "r gs",
      "Ġ 5",
      "Ġ H",
      "Ġ P",
      "Ġ lin",
      "Ġ list",
      "se m",
      "ct x",
      "Ġp l",
      "Ġp ro",
      "it y",
      "Ġa n",
      "cl ient",
      "def ault",
      "lo ok",
      "up le",
      "pt ional",
      "Ġd ownstream",
      "ĠR et",
      "ut e",
      "pl an",
      "Ġfile s",
      "to p",
      "ĠA rgs",
      "Ġ* *",
      "ĠI n",
      "ĠRepo sitory",
      "Ġsem antic",
      "rel ated",
      "ĠD ict",
      "ĠO ptional",
      "ĠSu mmar",
      "Ġexpan ded",
      "ebb ian",
      "rit e",
      "look up",
      ". _",
      "D EL",
      "I O",
      "L M",
      "] ]",
      "c reated",
      "d oc",
      "d ir",
      "e mp",
      "h er",
      "h as",
      "i re",
      "i mp",
      "k en",
      "m emory",
      "m etadata",
      "n umber",
      "p ut",
      "r ont",
      "t es",
      "y tes",
      "Ġ @",
      "Ġ on",
      "Ġ True",
      "Ġ updated",
      "Ġ None",
      "ĠĠĠĠĠĠĠĠ ĠĠĠĠĠĠĠĠĠĠĠĠĠĠĠĠĠĠĠ",
      "st ed",
      "Ġf ie",
      "Ġre verse",
      "er ature",
      "ed rock",
      "Ġc onf",
      "Ġ\" )",
      "Ġin clude",
      "Ġin put",
      "mp let",
      "Ġp re",
      "Ġa l",
      "Ġa re",
      "Ġfor mat",
      "Ġn p",
      "Ġn x",
      "ad ded",
      "lt a",
      "Ġb ot",
      "\"] )",
      "\"] ,",
      "\"] [",
      "bed rock",
      "weight s",
      "olle ct",
      "ut il",
      "pl ic",
      "Ġty pe",
      "to ken",
      "method s",
      "ve c",
      "__ (",
      "Ġg lobal",
      "=[ ]",
      "Ġ---------------- -",
      "Ġfolder s",
      "Ġde lta",
      "MO DEL",
      "ir s",
      "Ġen coding",
      "cur s",
      "Ġlin es",
      "sem antic",
      "Ġpl an",
      "emp erature",
      "ront ier",
      "ytes IO",
      "Ġfie ld",
      "Ġbot o",
      "token s",
      "' ][",
      "' )}",
      "( (",
      ") \")",
      ". \"",
      "E r",
      "I n",
      "I ON",
      "M emoryGraph",
      "P arser",
      "R et",
      "Y ou",
      "a ce",
      "a il",
      "a ck",
      "a ved",
      "b y",
      "b in",
      "b ack",
      "c cessors",
      "e ature",
      "f act",
      "g es",
      "g ge",
      "i ce",
      "m em",
      "m ory",
      "m bin",
      "o ice",
      "p re",
      "p on",
      "p ing",
      "s ion",
      "s ort",
      "v o",
      "w e",
      "} ,",
      "} )\")",
      "Ġ .",
      "Ġ y",
      "Ġ summar",
      "Ġ ---",
      "de cay",
      "on ing",
      "st art",
      "Ġre l",
      "Ġre levant",
      "Ġc all",
      "Ġc reated",
      "Ġt gt",
      "Ġp ath",
      "po p",
      "Ġa st",
      "\", {}",
      "su ccessors",
      "urn s",
      "Ġcl one",
      "Ġs aved",
      "as k",
      "an d",
      "folder s",
      "ĠC h",
      "ĠC l",
      "all back",
      "Graph Buil",
      "pl ain",
      "pl ace",
      "Ġty ping",
      "Ġbuil der",
      "ĠA n",
      "Ġ[] ):",
      "ĠCode Parser",
      "ĠCode Ret",
      "ĠCode GraphBuil",
      "ĠRepo Cl",
      "Ġde cay",
      "Ġexist ing",
      "Ġch oice",
      "retrie ved",
      "Ġwh ile",
      "wor ds",
      "buil d",
      "ĠH ebbian",
      "ĠRet urns",
      "ĠSummar ies",
      "Ġconf idence",
      "ollect or",
      "Er ror",
      "fact ory",
      "gge sted",
      "mem mory",
      "Ġsummar ize",
      "ĠCodeRet riever",
      "ĠCodeGraphBuil der",
      "ĠRepoCl oner",
      ". ')}",
      "0 1",
      "1 2",
      ": .",
      ": \")",
      "A W",
      "A t",
      "C ollection",
      "E G",
      "E S",
      "E nt",
      "F unction",
      "I N",
      "J S",
      "L LM",
      "N ame",
      "P ON",
      "R e",
      "R EG",
      "S E",
      "S u",
      "T ransformer",
      "] )",
      "b ute",
      "c al",
      "f o",
      "i bute",
      "k le",
      "l ap",
      "m es",
      "m ak",
      "o ic",
      "p dat",
      "p arse",
      "p agerank",
      "r c",
      "s pl",
      "s wer",
      "s pon",
      "t ransformer",
      "w ith",
      "w rite",
      "y pe",
      "y th",
      "Ġ <",
      "Ġ >",
      "Ġ ]",
      "Ġ e",
      "Ġ čĊ",
      "Ġ summaries",
      "Ġ user",
      "Ġ util",
      "re dent",
      "Ġf ull",
      "ra l",
      "ra ct",
      "Ġre spon",
      "ed irs",
      "Ġc ontent",
      "le n",
      "Ġt emperature",
      "Ġi o",
      "Ġi t",
      "---- --",
      "Ġin itial",
      "nt ence",
      "Ġp ic",
      "Ġp agerank",
      "ro ot",
      "\") )",
      "\") :",
      "Ġa d",
      "ext ract",
      "Ġn e",
      "un ed",
      "Ġm in",
      "Ġm odel",
      "Ġret rie",
      "() ),",
      "rom ad",
      "Ġcl oner",
      "lo cal",
      "Ġs rc",
      "Ġpr une",
      "id s",
      "an ces",
      "pt h",
      "en d",
      "en code",
      "Ġstr ing",
      "ist ances",
      "Ġd o",
      "ĠR AW",
      "ĠR ES",
      "ap plic",
      "co mplet",
      "ot al",
      "ĠS ent",
      "ĠS tr",
      "im um",
      "Ġth is",
      "class method",
      "ch oic",
      "um ent",
      "Ġ---------------- ------",
      "ial s",
      "ial ize",
      "ay load",
      "'] }\\",
      "Cl oning",
      "conf idence",
      "pr uned",
      "score s",
      "ĠG et",
      "tr ibute",
      "00 0",
      "Ġch romad",
      "Buil ding",
      "ðŁ §",
      "ĠB edrock",
      "ĠB ytesIO",
      "ence Transformer",
      "Ġover lap",
      "Ġdoc ument",
      "ĠP yth",
      "Ġpro vi",
      "her it",
      "curs iv",
      "mbin ed",
      "vo ke",
      "Ġ--- \\",
      "At tribute",
      "Ent er",
      "JS ON",
      "PON SE",
      "REG ION",
      "mes s",
      "mak edirs",
      "pdat e",
      "spl it",
      "transformer s",
      "redent ials",
      "Ġrespon se",
      "Ġpic kle",
      "ĠRES PONSE",
      "applic ation",
      "complet ion",
      "ĠSent enceTransformer",
      "ĠStr ucture",
      "choic es",
      "Ġchromad b",
      "ĠPyth on",
      "\" #",
      "\" -",
      "\" \\",
      "' ],",
      "( [",
      ") ]",
      ", _",
      "1 0",
      "2 0",
      "B E",
      "C all",
      "D D",
      "E V",
      "E d",
      "E m",
      "E x",
      "G et",
      "M BE",
      "N o",
      "T uple",
      "] ):",
      "_ {",
      "a rent",
      "a ke",
      "c c",
      "c ies",
      "d istances",
      "e re",
      "f s",
      "f rontier",
      "f ere",
      "g m",
      "n p",
      "n ce",
      "o p",
      "o ol",
      "p y",
      "p pl",
      "s ing",
      "s nippets",
      "s sion",
      "s cc",
      "t gt",
      "t otal",
      "v ie",
      "{ ',",
      "} ]",
      "} \"]",
      "} ...\")",
      "Ġ &",
      "Ġ /",
      "Ġ N",
      "Ġ Q",
      "Ġ h",
      "Ġ l",
      "Ġ lo",
      "Ġ embedding",
      "Ġ stat",
      "Ġ update",
      "Ġ embeddings",
      "Ġ args",
      "Ġ learning",
      "Ġ ctx",
      "ĠĠ čĊ",
      "ĠĠĠĠĠĠĠĠ ĠĠĠĠĠĠĠĠ",
      "de pen",
      "de cessors",
      "re e",
      "re levant",
      "re place",
      "at tr",
      "in es",
      "in herit",
      "se r",
      "se t",
      "se gm",
      "Ġf rontier",
      "Ġf ail",
      "Ġf eature",
      "ar g",
      "ar ch",
      "ar ity",
      "le ast",
      "Ġt uple",
      "Ġi ds",
      "Ġin dent",
      "Ġin fo",
      "ex ist",
      "Ġa dd",
      "al se",
      "Ġn umber",
      "Ġm o",
      "def ines",
      "() ,",
      "rom a",
      "lo re",
      "repo sitory",
      "Ġs h",
      "Ġs im",
      "en o",
      "il arity",
      "Ġb y",
      "Ġb ool",
      "ist ance",
      "cept ion",
      "Ġ[ (",
      "Ġ[ {",
      "Ġd ire",
      "Ġd fs",
      "Ġd istance",
      "ax imum",
      "bed ding",
      "el et",
      "ĠS t",
      "ĠS imp",
      "Ġse ssion",
      "updat es",
      "lin eno",
      "Ġg it",
      "Ġ} ],",
      "=[ {",
      "ĠM aximum",
      "ge Data",
      "ĠE MBE",
      "Ġcode base",
      "iz ed",
      "key s",
      "lev ance",
      "ĠL EV",
      "den cies",
      "Ġmetadata s",
      "Ġco s",
      "Ġco mbined",
      "ĠF allback",
      "ĠF alse",
      "read y",
      "ĠEx ception",
      "retrie ve",
      "Ġ' .",
      "Ġbase s",
      "ĠT arget",
      "ĠU pdate",
      "load s",
      "De f",
      "Node Data",
      "dump s",
      "Ġpre ds",
      "Ġal ready",
      "Ġy our",
      "\",{} ).",
      "ĠCh roma",
      "ĠCl uster",
      "ĠAn y",
      "IN G",
      "Su ggested",
      "Ġretrie ved",
      "Ġdo es",
      "ðŁ§ ł",
      "Ġdocument s",
      "Ġprovi ded",
      "DD ING",
      "Em bedding",
      "fere nce",
      "ppl y",
      "vie w",
      "depen dencies",
      "inherit s",
      "segm ent",
      "Ġfail ed",
      "Ġtuple s",
      "exist s",
      "Ġsim ilarity",
      "Ġdire ct",
      "ĠSimp le",
      "ĠEMBE DDING",
      "ĠLEV EL",
      "\" .",
      "' )",
      ", \"",
      "- >",
      ". \\",
      ". {",
      "/ .",
      "2 3",
      "3 1",
      "8 5",
      "= '",
      "A T",
      "A ME",
      "B F",
      "B ytesIO",
      "C H",
      "C o",
      "C ollector",
      "D i",
      "I d",
      "I mport",
      "L o",
      "M A",
      "M in",
      "N D",
      "N ot",
      "N AME",
      "O T",
      "O MA",
      "P ar",
      "P arsed",
      "P AT",
      "R L",
      "R em",
      "R OMA",
      "S er",
      "T E",
      "T ype",
      "T op",
      "W S",
      "W rite",
      "] }",
      "] ]:",
      "a b",
      "a w",
      "a ve",
      "a ded",
      "a ch",
      "a ges",
      "c cept",
      "c ute",
      "c redentials",
      "d o",
      "d geData",
      "e p",
      "e ction",
      "e ded",
      "e ck",
      "e ast",
      "e cute",
      "f eature",
      "g ion",
      "h ro",
      "h ebbian",
      "i de",
      "i or",
      "i ction",
      "i as",
      "i ated",
      "i LM",
      "k l",
      "k x",
      "k elet",
      "m ist",
      "m ain",
      "n C",
      "n or",
      "n er",
      "n am",
      "n al",
      "n id",
      "n ap",
      "n Top",
      "o s",
      "p ro",
      "p ic",
      "p arser",
      "p ayload",
      "p kl",
      "r ule",
      "r vi",
      "r unt",
      "s y",
      "s im",
      "s oc",
      "t ra",
      "t ed",
      "t ol",
      "t emperature",
      "u b",
      "u s",
      "u ction",
      "u lt",
      "u ery",
      "v st",
      "v ail",
      "w b",
      "w al",
      "y nt",
      "} .{",
      "~ /.",
      "â Ĩ",
      "Ġ 2",
      "Ġ K",
      "Ġ at",
      "Ġ et",
      "Ġ ):",
      "Ġ un",
      "Ġ store",
      "Ġ vi",
      "Ġ embed",
      "Ġ ent",
      "Ġ ],",
      "Ġ Tr",
      "Ġ lev",
      "Ġ use",
      "Ġ upstream",
      "Ġ start",
      "Ġ root",
      "Ġ extract",
      "Ġ JSON",
      "Ġ NodeData",
      "Ġ rule",
      "Ġ ~/.",
      "Ġ âĨ",
      "Į į",
      "ĵ ģ",
      "ĠĠĠ čĊ",
      "de code",
      "de pth",
      "de vst",
      "re ate",
      "re verse",
      "at ch",
      "on ly",
      "in e",
      "in voke",
      "se ntence",
      "st ion",
      "st and",
      "et wor",
      "et we",
      "Ġf allback",
      "ra y",
      "Ġre ad",
      "Ġre cursiv",
      "Ġre levance",
      "Ġre gion",
      "er nal",
      "ph a",
      "Ġc lear",
      "Ġc ollector",
      "Ġc redentials",
      "ar y",
      "ar ray",
      "Ġ\" \"",
      "Ġ\" ).",
      "Ġ\" __",
      "Ġ\" ->",
      "get her",
      "ion s",
      "Ġt ime",
      "Ġt ask",
      "Ġt ree",
      "Ġi mp",
      "(\" .",
      "Ġp arse",
      "Ġp ayload",
      "Ġp arent",
      "it Co",
      "ro le",
      "ro up",
      "\") ,",
      "\") ),",
      "Ġa ccept",
      "Ġa vail",
      "data class",
      "al g",
      "al y",
      "ext ernal",
      "Ġn id",
      "Ġn etwor",
      "str uction",
      "cl oner",
      "Ġm an",
      "Ġm ult",
      "Ġm atch",
      "Ġ{ \"",
      "() ['",
      "Ġcl asses",
      "mm and",
      "ad ing",
      "der stand",
      "Ġs kelet",
      "Ġimport ant",
      "summar iz",
      "en er",
      "en coding",
      "Ġb ody",
      "Ġb edrock",
      "Ġb etwe",
      "code Error",
      "iv en",
      "ist ic",
      "Ġw e",
      "Ġw as",
      "Ġw ant",
      "Ġto gether",
      "Ġdef init",
      "\"] .",
      "\"] [\"",
      "Ġd irs",
      "Ġd iction",
      "sit y",
      "import ant",
      "Ġex plic",
      "Ġex plain",
      "Ġex ecute",
      "el y",
      "ĠC ollection",
      "ver sion",
      "ver view",
      "Ġ1 000",
      "ant hro",
      "ĠS et",
      "ĠS ource",
      "ĠS nippets",
      "Ġas soc",
      "vi ou",
      "Ġse ntence",
      "Ġse arch",
      "Ġse rvi",
      "Ġ( {",
      "cluster ing",
      "ĠRe levant",
      "ĠRe place",
      "ĠRe cursiv",
      "ĠRe ference",
      "ĠA pply",
      "ĠA WS",
      "ith ub",
      "). \"\"\"",
      "ip le",
      "lin alg",
      "Ġ[] )]",
      "__ \":",
      "module s",
      "Ġg roup",
      "Ġg iven",
      "ĠM odule",
      "Ġ{} )",
      "Ġ{} ):",
      "um erate",
      "ĠE n",
      "ĠE ND",
      "ĠE dgeData",
      "()) )}",
      "iz ing",
      "oc curs",
      "Ġmethod s",
      "ĠI f",
      "concept s",
      "Ġde pth",
      "den sity",
      "Ġco unt",
      "Ġco mplet",
      "Ġstructure s",
      "'] )",
      "'] }",
      "'] )}",
      "Cl one",
      "ĠF or",
      "base s",
      "ĠG lobal",
      "ĠG enerate",
      "ĠG itCo",
      "ĠG ithub",
      "Ġen d",
      "Ġen v",
      "Ġen umerate",
      "ret riever",
      "Ġexist s",
      "read only",
      "Ġexp lore",
      "ĠEx p",
      "ĠEx tra",
      "au de",
      "retrie val",
      "ðŁ Įį",
      "ðŁ ĵģ",
      "ĠO verview",
      "Ġbase d",
      "Ġwh at",
      "ĠSu ggested",
      "Ġset up",
      "val id",
      "val ue",
      "ĠT ype",
      "ĠU n",
      "ĠU RL",
      "itial ized",
      "Ġover write",
      "De ser",
      "De codeError",
      "Node s",
      "buil der",
      "per ty",
      "Ġ5 12",
      "Ġ5 000",
      "Ġpro per",
      "Ġan swer",
      "Ġan aly",
      "plan ner",
      "ĠIn itial",
      "ĠIn clude",
      "ĠIn voke",
      "ĠSummar y",
      "Ġon es",
      "Ġon ly",
      "Ġpre viou",
      "Ġal pha",
      ".\" .",
      "In struction",
      "In itialized",
      "pre ds",
      "pre decessors",
      "we ak",
      "Ġy ou",
      "Ġrel ated",
      "\",{} ):",
      "ĠCh eck",
      "ĠCl aude",
      "ĠAn swer",
      "12 3",
      "Function Def",
      "Re po",
      "Ġ> =",
      "Ġutil s",
      "Ġutil ity",
      "Ġcontent Type",
      "Ġinitial ize",
      "Ġinitial izing",
      "Ġad ding",
      "Ġad ded",
      "Ġne i",
      "Ġne eded",
      "Ġmodel Id",
      "JSON DecodeError",
      "mess age",
      "mess ages",
      "\"# #",
      "20 23",
      "Call Collector",
      "Ed ges",
      "ĠN OT",
      "ĠQ uery",
      "Ġlo aded",
      "Ġmo v",
      "Ġsh util",
      "Ġ[{ \"",
      "Ġcos ine",
      "BF S",
      "CH ROMA",
      "Di Graph",
      "Lo ading",
      "Min iLM",
      "Par sing",
      "PAT H",
      "Rem ove",
      "Ser ialize",
      "ab le",
      "aw s",
      "mist ral",
      "nor m",
      "nam es",
      "nap se",
      "pro perty",
      "runt ime",
      "sy napse",
      "tol ist",
      "wal k",
      "ynt ax",
      "Ġet c",
      "Ġvi a",
      "ĠTr y",
      "Ġlev el",
      "ĠâĨ Ĵ",
      "devst ral",
      "reverse d",
      "Ġrecursiv ely",
      "Ġ\"-> \",",
      "Ġavail able",
      "Ġnetwor kx",
      "Ġmult iple",
      "mmand Error",
      "Ġskelet on",
      "summariz er",
      "Ġbetwe en",
      "istic s",
      "Ġdefinit ions",
      "Ġdiction ary",
      "Ġexplic it",
      "anthro pic",
      "Ġassoc iated",
      "Ġservi ce",
      "ĠRecursiv e",
      "Ġ[])] )}",
      "Ġcomplet ed",
      "'])} \")",
      "ĠGitCo mmandError",
      "Deser ialize",
      "Ġpreviou s",
      "Instruction s"
    ]
  }
}